unsigned char _home_ee2405_ee2405_mbed07_model_model_quantized_tflite[] = {
  0x20, 0x00, 0x00, 0x00, 0x54, 0x46, 0x4c, 0x33, 0x00, 0x00, 0x00, 0x00,
  0x00, 0x00, 0x12, 0x00, 0x1c, 0x00, 0x04, 0x00, 0x08, 0x00, 0x0c, 0x00,
  0x10, 0x00, 0x14, 0x00, 0x00, 0x00, 0x18, 0x00, 0x12, 0x00, 0x00, 0x00,
  0x03, 0x00, 0x00, 0x00, 0xf0, 0x1a, 0x00, 0x00, 0x20, 0x13, 0x00, 0x00,
  0x08, 0x13, 0x00, 0x00, 0x34, 0x00, 0x00, 0x00, 0x04, 0x00, 0x00, 0x00,
  0x01, 0x00, 0x00, 0x00, 0x04, 0x00, 0x00, 0x00, 0xc0, 0xe5, 0xff, 0xff,
  0x08, 0x00, 0x00, 0x00, 0x11, 0x00, 0x00, 0x00, 0x13, 0x00, 0x00, 0x00,
  0x6d, 0x69, 0x6e, 0x5f, 0x72, 0x75, 0x6e, 0x74, 0x69, 0x6d, 0x65, 0x5f,
  0x76, 0x65, 0x72, 0x73, 0x69, 0x6f, 0x6e, 0x00, 0x12, 0x00, 0x00, 0x00,
  0xc8, 0x12, 0x00, 0x00, 0x78, 0x12, 0x00, 0x00, 0xa8, 0x11, 0x00, 0x00,
  0x8c, 0x11, 0x00, 0x00, 0x3c, 0x11, 0x00, 0x00, 0x0c, 0x11, 0x00, 0x00,
  0xfc, 0x09, 0x00, 0x00, 0xf4, 0x09, 0x00, 0x00, 0xec, 0x09, 0x00, 0x00,
  0xe4, 0x09, 0x00, 0x00, 0xdc, 0x09, 0x00, 0x00, 0xd4, 0x09, 0x00, 0x00,
  0xcc, 0x09, 0x00, 0x00, 0xbc, 0x01, 0x00, 0x00, 0x2c, 0x00, 0x00, 0x00,
  0x24, 0x00, 0x00, 0x00, 0x1c, 0x00, 0x00, 0x00, 0x04, 0x00, 0x00, 0x00,
  0x06, 0xed, 0xff, 0xff, 0x04, 0x00, 0x00, 0x00, 0x05, 0x00, 0x00, 0x00,
  0x31, 0x2e, 0x35, 0x2e, 0x30, 0x00, 0x00, 0x00, 0xd4, 0xe5, 0xff, 0xff,
  0xd8, 0xe5, 0xff, 0xff, 0x22, 0xed, 0xff, 0xff, 0x04, 0x00, 0x00, 0x00,
  0x80, 0x01, 0x00, 0x00, 0x9c, 0xb9, 0x03, 0xbf, 0x36, 0xa3, 0x2d, 0xbf,
  0xb9, 0xb6, 0x03, 0x3d, 0xb2, 0xc6, 0x46, 0x3e, 0x5e, 0x6a, 0xb8, 0x3e,
  0x2b, 0x35, 0xb8, 0x3d, 0xe2, 0x02, 0xa6, 0x3d, 0x7f, 0xe2, 0x1b, 0x3e,
  0x6c, 0x11, 0x6f, 0x3e, 0xb8, 0x4d, 0x1a, 0xbe, 0xa0, 0x52, 0xdf, 0xbe,
  0x70, 0xfb, 0xb2, 0xbd, 0x20, 0xcc, 0x32, 0x3e, 0x46, 0x01, 0x86, 0xbd,
  0x78, 0x09, 0x39, 0xbd, 0xbf, 0x72, 0x8a, 0xbd, 0x91, 0x6d, 0x85, 0x3e,
  0x77, 0xa0, 0xbe, 0xbd, 0x49, 0xc1, 0xb9, 0xbd, 0x93, 0x41, 0x01, 0x3d,
  0xd1, 0x36, 0x24, 0xbf, 0x5f, 0x05, 0x14, 0xbe, 0xa3, 0x8a, 0xb2, 0xbc,
  0x1d, 0xdd, 0x37, 0x3e, 0xe0, 0xc2, 0x0d, 0x3e, 0x8b, 0x0f, 0x07, 0xbe,
  0x0c, 0x54, 0x89, 0x3e, 0x37, 0x1a, 0x44, 0xbe, 0x13, 0x24, 0x32, 0xbe,
  0xf3, 0xa3, 0xe7, 0xbd, 0x69, 0xa0, 0xd0, 0x3d, 0x22, 0x92, 0x1d, 0x3e,
  0xd0, 0xb7, 0x1d, 0xbf, 0x8c, 0x4f, 0x0a, 0xbe, 0x3c, 0x8f, 0x64, 0xbd,
  0x6c, 0x0d, 0xec, 0x3c, 0x8f, 0x00, 0xc4, 0xbe, 0x58, 0xbd, 0xf0, 0xbd,
  0x53, 0x20, 0x8e, 0xbd, 0x74, 0xc3, 0x6b, 0xbc, 0xee, 0xf1, 0xc6, 0xbe,
  0x46, 0xe6, 0x91, 0xbe, 0x03, 0xe2, 0x13, 0xbe, 0xfa, 0x62, 0xae, 0xbe,
  0xd9, 0x6a, 0x05, 0xbe, 0xfb, 0x2b, 0x47, 0x3e, 0x07, 0x4c, 0x98, 0xbd,
  0x2d, 0xa2, 0x84, 0xbd, 0x23, 0x2e, 0x99, 0xbd, 0x8c, 0x97, 0xab, 0xbd,
  0x90, 0xe8, 0xaf, 0xbd, 0xe8, 0x6c, 0x6b, 0xbe, 0x16, 0x7c, 0xda, 0x3d,
  0x4f, 0x66, 0x95, 0xbd, 0x19, 0xfb, 0x86, 0x3d, 0x55, 0xf6, 0xd9, 0x3d,
  0xaa, 0x4c, 0x01, 0xbd, 0x89, 0x45, 0x46, 0xbd, 0xb8, 0x73, 0x9e, 0x3c,
  0x8d, 0xa3, 0xdf, 0x3d, 0xb9, 0xe1, 0x47, 0x3d, 0x51, 0xa7, 0x68, 0x3d,
  0xa6, 0xca, 0x3b, 0xbd, 0x5c, 0x27, 0xe5, 0xbd, 0x83, 0x55, 0x53, 0xbe,
  0x8f, 0x2a, 0x32, 0xbe, 0x47, 0x95, 0x47, 0x3d, 0xb5, 0xf7, 0x01, 0x3e,
  0xbd, 0x8d, 0xfa, 0x3d, 0xf1, 0x34, 0xdb, 0xbd, 0x63, 0xda, 0x55, 0xbd,
  0x81, 0xd1, 0x98, 0xbe, 0x78, 0xba, 0x77, 0xbc, 0xd4, 0x69, 0x37, 0x3b,
  0xa1, 0x55, 0xfe, 0xbe, 0xfa, 0xe7, 0x40, 0xbe, 0x42, 0x72, 0x15, 0xbe,
  0xd7, 0x09, 0x25, 0xbe, 0x74, 0x3c, 0xc2, 0x3d, 0xb1, 0xe8, 0x1e, 0xbd,
  0x83, 0x15, 0xe1, 0xbe, 0xc5, 0xd8, 0x14, 0x3e, 0xfe, 0x6b, 0x96, 0x3e,
  0x99, 0x42, 0x92, 0x3c, 0x40, 0x90, 0x93, 0xbd, 0x3c, 0xbe, 0xc9, 0xbb,
  0xaf, 0x69, 0x54, 0xbd, 0x04, 0x08, 0x09, 0xbc, 0xf1, 0x50, 0xb1, 0xbe,
  0x86, 0x90, 0xfa, 0xbc, 0xba, 0x6a, 0x04, 0x3e, 0x7b, 0x2a, 0x0d, 0xbe,
  0xad, 0x3b, 0xc6, 0x3c, 0xfd, 0x79, 0x67, 0x3e, 0x69, 0x4f, 0x92, 0xbd,
  0x1c, 0xcb, 0xd7, 0xbe, 0xae, 0xee, 0xff, 0xff, 0x04, 0x00, 0x00, 0x00,
  0x00, 0x08, 0x00, 0x00, 0x7f, 0xc1, 0xcb, 0xbe, 0xc4, 0xf2, 0x4c, 0xbe,
  0x86, 0xb2, 0xc4, 0xbe, 0xc8, 0xc7, 0x4b, 0xbd, 0xc8, 0xb4, 0x56, 0xbe,
  0x86, 0x1d, 0x10, 0xbe, 0xe9, 0x86, 0x39, 0xbe, 0x5e, 0x5f, 0x59, 0xbe,
  0xdd, 0xcd, 0xc5, 0xbe, 0x56, 0x97, 0xa0, 0x3d, 0x0e, 0x90, 0xca, 0x3d,
  0x69, 0x51, 0xcc, 0x3d, 0x80, 0xbf, 0x1f, 0xbf, 0xf1, 0x72, 0x65, 0x3c,
  0xed, 0x7e, 0x86, 0xbd, 0x97, 0x62, 0x86, 0xbb, 0xff, 0x0f, 0x5f, 0xbd,
  0xbd, 0xa4, 0xf4, 0x3d, 0xf9, 0xe2, 0x2a, 0xbf, 0x46, 0xbf, 0x02, 0xbd,
  0xa9, 0x8d, 0x26, 0x3d, 0xff, 0x3c, 0xb6, 0x3c, 0xe4, 0xbb, 0x4e, 0x3c,
  0x06, 0x28, 0x2a, 0x3d, 0x87, 0xa4, 0x79, 0x3f, 0x34, 0x6e, 0xd5, 0x3c,
  0x5a, 0xfd, 0x72, 0xbf, 0x25, 0xa9, 0x5d, 0xbd, 0x71, 0xbb, 0xff, 0xbc,
  0x70, 0x61, 0x8c, 0xbd, 0x2a, 0x32, 0xee, 0x3c, 0x12, 0x4a, 0x85, 0x3e,
  0x4c, 0x96, 0x7b, 0xbe, 0xbb, 0xda, 0xdc, 0x3d, 0x22, 0x49, 0x45, 0xbf,
  0xea, 0x92, 0x03, 0xbe, 0xc7, 0x16, 0x24, 0x3e, 0x9e, 0x86, 0x91, 0xbe,
  0x4c, 0x3b, 0x1f, 0xbe, 0x80, 0x53, 0x6b, 0xbe, 0x44, 0xb0, 0xb6, 0x3e,
  0xf4, 0xb7, 0xf5, 0x3e, 0x9c, 0x1f, 0x21, 0xbc, 0x6f, 0x63, 0x17, 0x3e,
  0x00, 0xa4, 0x1c, 0x3e, 0x53, 0x5a, 0x9a, 0xbc, 0xfe, 0xd0, 0x10, 0xbd,
  0x8b, 0x8c, 0x53, 0x3e, 0x45, 0xd3, 0x8a, 0x3b, 0x96, 0x8e, 0x4b, 0x3d,
  0x52, 0x03, 0x16, 0xbd, 0x53, 0x6e, 0xc4, 0x3c, 0x27, 0x89, 0x44, 0xbe,
  0x1b, 0xb7, 0x7d, 0x3d, 0xa4, 0x6a, 0x81, 0x3d, 0x74, 0x47, 0xe9, 0x3d,
  0x86, 0x3e, 0xd2, 0xbd, 0x93, 0x68, 0x9a, 0x3d, 0xa5, 0x46, 0x5c, 0xbe,
  0xd5, 0x2d, 0x8d, 0x3d, 0x29, 0xb9, 0x6d, 0xbe, 0xd4, 0x78, 0x72, 0xbd,
  0x43, 0xde, 0x28, 0xbd, 0xa8, 0x2a, 0x86, 0xbd, 0x9d, 0xc4, 0x0a, 0xbe,
  0xe6, 0x49, 0x7d, 0x3d, 0x61, 0xa6, 0x8f, 0xbe, 0x16, 0x17, 0xb6, 0xbd,
  0x54, 0x7e, 0xca, 0x3c, 0x9d, 0x5a, 0x49, 0xbd, 0xc0, 0x9e, 0x31, 0xbe,
  0x1c, 0xa7, 0x24, 0xbe, 0x29, 0xe4, 0x40, 0xbe, 0x8f, 0x32, 0xf6, 0xbd,
  0xde, 0xb7, 0x07, 0x3d, 0xdc, 0x3d, 0x48, 0xbd, 0x06, 0x08, 0x92, 0x3d,
  0x84, 0x4f, 0xd6, 0xbc, 0xf1, 0xbb, 0x57, 0xbe, 0xf9, 0x28, 0xd5, 0x3c,
  0x9d, 0x11, 0xd3, 0x3d, 0x99, 0xd8, 0xc0, 0x3d, 0x37, 0xdc, 0x82, 0x3d,
  0xf3, 0xe6, 0x25, 0xbe, 0x5c, 0xc8, 0x6d, 0xbd, 0x66, 0x87, 0x2c, 0x3e,
  0x77, 0xcf, 0x75, 0xbe, 0x21, 0x7a, 0x43, 0xbe, 0x5d, 0x15, 0x62, 0xbc,
  0xc7, 0xdc, 0x32, 0x3e, 0xfc, 0xe1, 0x2b, 0x3e, 0xfa, 0xa7, 0x40, 0x3d,
  0x3d, 0x84, 0xb9, 0xbd, 0x3d, 0xd3, 0x29, 0xbe, 0x3c, 0x0e, 0x79, 0xbd,
  0xba, 0x83, 0xba, 0xbd, 0x74, 0x5a, 0xd7, 0x3e, 0xb9, 0xda, 0x2f, 0x3e,
  0x6c, 0xeb, 0xd0, 0x3d, 0x45, 0x4a, 0xf8, 0xbd, 0xeb, 0x8d, 0x0e, 0x3f,
  0xca, 0xe2, 0x5d, 0xbe, 0xba, 0xc7, 0xfc, 0x3c, 0x02, 0x17, 0x6e, 0x3d,
  0x50, 0x51, 0x87, 0x3c, 0xc2, 0x83, 0xa4, 0x3e, 0x13, 0xda, 0x8a, 0xbd,
  0xf5, 0x8d, 0x2a, 0xbd, 0x22, 0x9e, 0xb3, 0x3c, 0x19, 0x0a, 0x59, 0xbe,
  0x01, 0xc5, 0xdd, 0x3b, 0xb3, 0x88, 0xa1, 0x3c, 0xe8, 0xd0, 0x42, 0xbd,
  0x79, 0x35, 0x8c, 0xbd, 0x6e, 0x9f, 0xa3, 0xbb, 0xdc, 0x00, 0xf3, 0xbd,
  0xcc, 0xc3, 0xfe, 0xbd, 0xd7, 0x56, 0x68, 0x3d, 0x7e, 0xc1, 0x2b, 0x3d,
  0x92, 0x3a, 0x6e, 0xbd, 0x75, 0xc8, 0x16, 0xbe, 0xd3, 0x38, 0xae, 0xbd,
  0x6d, 0x26, 0xed, 0xbd, 0xb5, 0xc2, 0xb3, 0xbd, 0xaf, 0xb5, 0x69, 0xbe,
  0x91, 0x2e, 0x55, 0xbe, 0x38, 0x1e, 0xc5, 0xbd, 0xdc, 0x55, 0x8d, 0xbd,
  0x0d, 0xb0, 0x4c, 0x3c, 0x41, 0x9d, 0xb6, 0x3c, 0xb2, 0xfb, 0x8c, 0x3e,
  0xdd, 0x43, 0x14, 0x3d, 0xbd, 0x05, 0x10, 0x3f, 0x93, 0x8a, 0x98, 0xbd,
  0x72, 0xbf, 0xc0, 0xbe, 0xab, 0x2d, 0x85, 0xbe, 0x90, 0x4e, 0x22, 0xbe,
  0xc1, 0x8b, 0x1b, 0x3c, 0x53, 0x23, 0x91, 0x3d, 0x5c, 0x89, 0x9f, 0x3d,
  0xe4, 0xc9, 0xd7, 0xbd, 0xa7, 0xf5, 0x72, 0x3e, 0x63, 0x13, 0x02, 0xbf,
  0x5c, 0x66, 0x68, 0xbe, 0x54, 0x8e, 0x8b, 0x3e, 0x8b, 0xdb, 0xd2, 0x3c,
  0x14, 0x94, 0x1a, 0x3e, 0x66, 0x7b, 0xfe, 0xbc, 0x41, 0xab, 0xa3, 0xbd,
  0x78, 0xc5, 0x69, 0xbb, 0x22, 0x5a, 0xda, 0xbe, 0xfb, 0x1c, 0x92, 0xbd,
  0xbf, 0x57, 0xcc, 0x3e, 0x7f, 0xad, 0xa2, 0xbd, 0x9c, 0x2b, 0x08, 0xbd,
  0x45, 0x70, 0xdb, 0x3d, 0xe1, 0x3d, 0xdb, 0x3e, 0xe3, 0x95, 0x44, 0xbe,
  0x41, 0x36, 0x00, 0xbf, 0x20, 0xd2, 0x26, 0xbe, 0x00, 0x3a, 0x9d, 0xbe,
  0x95, 0x14, 0x2b, 0xbf, 0x4d, 0x62, 0x5e, 0xbf, 0x4b, 0xe8, 0x09, 0xbf,
  0xee, 0xad, 0x65, 0xbe, 0x1f, 0xe4, 0xcf, 0xbe, 0xef, 0x17, 0xc7, 0xbe,
  0x3d, 0xaa, 0xba, 0xbe, 0xd6, 0x07, 0xbf, 0xbe, 0x4e, 0x8d, 0x3f, 0xbf,
  0x7b, 0x80, 0xca, 0x3d, 0x0f, 0x32, 0xa6, 0xbe, 0xc5, 0x10, 0x4e, 0xbf,
  0xda, 0x9d, 0x1c, 0xbd, 0x2c, 0xb9, 0x45, 0x3c, 0x4e, 0xf8, 0x5c, 0xbe,
  0xb3, 0xdc, 0x69, 0x3e, 0xa4, 0xc3, 0x4f, 0xbe, 0xcc, 0xb6, 0x8d, 0xbe,
  0x6c, 0x2e, 0x37, 0x3d, 0x1e, 0x25, 0x64, 0x3e, 0x9b, 0xbe, 0x90, 0xbd,
  0x53, 0x56, 0x0d, 0xbe, 0x5d, 0x65, 0xc5, 0xbc, 0xbb, 0x68, 0xfe, 0x3e,
  0xd6, 0x07, 0x1f, 0x3e, 0xfe, 0xf8, 0xea, 0xbe, 0xad, 0x66, 0x4c, 0x3e,
  0xf4, 0x6d, 0xa4, 0x3e, 0xae, 0xe9, 0x0f, 0xbe, 0xeb, 0x69, 0x53, 0xbb,
  0xcd, 0xdf, 0x23, 0x3e, 0x52, 0x3f, 0x2c, 0xbe, 0x80, 0xf0, 0x25, 0xbf,
  0xce, 0x94, 0x3b, 0x3e, 0xd9, 0x8f, 0x5c, 0xbf, 0x59, 0x2d, 0x69, 0x3e,
  0xe5, 0x20, 0xea, 0x3d, 0x18, 0x65, 0x63, 0xbd, 0x21, 0x3d, 0xdf, 0x3d,
  0x83, 0xc8, 0xf0, 0xbd, 0x9d, 0x6a, 0x59, 0xbf, 0xcc, 0x3e, 0xbc, 0xbd,
  0x6c, 0x4e, 0x70, 0xbf, 0xeb, 0x69, 0xb0, 0xbd, 0x85, 0xa9, 0x6c, 0x3d,
  0x14, 0x92, 0x1c, 0x3e, 0x35, 0x47, 0x17, 0x3d, 0x7d, 0xe5, 0xe1, 0xbd,
  0x91, 0xf1, 0x52, 0xbf, 0x16, 0x96, 0x72, 0xbd, 0x3b, 0x3c, 0x6b, 0xbf,
  0x12, 0x04, 0xeb, 0x3d, 0xdc, 0xb8, 0xa5, 0x3d, 0xb0, 0x4c, 0x47, 0x3c,
  0xce, 0x33, 0xb9, 0xbd, 0x1f, 0x98, 0xb2, 0xbe, 0xed, 0x2f, 0x4c, 0xbf,
  0x12, 0xfa, 0x1f, 0xbe, 0x63, 0x18, 0x5e, 0xbf, 0xb5, 0x13, 0x8c, 0x3e,
  0x79, 0xdf, 0x88, 0xbd, 0x65, 0xf8, 0x21, 0xbd, 0xab, 0x4c, 0x00, 0x3e,
  0x2e, 0xc2, 0x93, 0xbe, 0xea, 0x93, 0x0b, 0xbe, 0x83, 0x35, 0xa4, 0xbd,
  0xf3, 0xd8, 0x95, 0xbc, 0x95, 0x4b, 0xf3, 0xbd, 0xfe, 0x37, 0x91, 0x3d,
  0x9a, 0xf4, 0x23, 0x3c, 0x1a, 0x5b, 0xdf, 0xbc, 0x70, 0xad, 0x09, 0x3f,
  0xf3, 0x9b, 0x2e, 0x3e, 0xca, 0x3f, 0x89, 0xbd, 0x6c, 0x54, 0xc7, 0xbc,
  0x26, 0xa0, 0x20, 0x3e, 0x37, 0xba, 0x31, 0x3c, 0xf3, 0x28, 0x7b, 0xbd,
  0x26, 0xbe, 0xd0, 0x3d, 0x19, 0x34, 0x0f, 0x3c, 0x96, 0x61, 0xc4, 0xbd,
  0x97, 0x85, 0x8c, 0xbd, 0xb5, 0x26, 0xdf, 0x3c, 0x00, 0xae, 0x06, 0xbd,
  0xab, 0xe1, 0x90, 0xbe, 0xfc, 0xa0, 0x3b, 0xbe, 0xaa, 0xa1, 0xc7, 0xbd,
  0xbe, 0x01, 0x90, 0xba, 0x34, 0xf8, 0x08, 0x3e, 0xeb, 0x5e, 0x8b, 0xbe,
  0x1d, 0x9e, 0x19, 0xbc, 0xa8, 0xdc, 0x82, 0xbc, 0x84, 0x99, 0xbf, 0xbe,
  0xfc, 0x3e, 0x44, 0xbe, 0xdc, 0x7d, 0x41, 0xbd, 0xd8, 0x9b, 0x4d, 0xbe,
  0x60, 0x79, 0xa3, 0xbe, 0x98, 0x94, 0x7f, 0xbc, 0xe0, 0x8e, 0x68, 0xbe,
  0x15, 0x6f, 0x1c, 0xbe, 0x5a, 0x78, 0x76, 0xbd, 0xd7, 0xd9, 0x44, 0xbe,
  0xcf, 0xf1, 0x1f, 0xbe, 0xe4, 0xc9, 0x75, 0xbf, 0x0f, 0xfb, 0x72, 0xbe,
  0x04, 0xa4, 0xab, 0xbd, 0x00, 0x25, 0x60, 0xbe, 0xff, 0xb7, 0x38, 0xbf,
  0x43, 0x9b, 0xd1, 0xbd, 0x9b, 0xf4, 0x38, 0xbe, 0x82, 0x5f, 0x11, 0xbe,
  0xa9, 0x75, 0x8e, 0xbe, 0xae, 0x1a, 0x3c, 0xbe, 0xf6, 0x00, 0x89, 0x3e,
  0x82, 0xaf, 0xf1, 0xbd, 0x46, 0xd5, 0x31, 0xbf, 0xf5, 0x23, 0x4a, 0xbe,
  0x4c, 0x17, 0xe2, 0x3d, 0x78, 0x5b, 0xd0, 0x3c, 0x3e, 0x1c, 0x37, 0x3d,
  0xb9, 0x5b, 0xfc, 0x3e, 0xd7, 0xcd, 0x01, 0xbe, 0x9e, 0x6f, 0x02, 0x3f,
  0x4f, 0x71, 0xe9, 0x3e, 0xc0, 0xff, 0xae, 0xbd, 0xea, 0x4c, 0x58, 0x3d,
  0xdc, 0x9c, 0x4f, 0x3e, 0x14, 0x46, 0x93, 0xbe, 0xdc, 0xad, 0xb5, 0x3e,
  0xcd, 0x96, 0x76, 0xbc, 0x8c, 0xa5, 0x73, 0x3d, 0x46, 0xab, 0x66, 0x3e,
  0x12, 0x8d, 0x01, 0xbe, 0x53, 0xde, 0xa0, 0xbd, 0x5b, 0xad, 0x88, 0xbe,
  0x66, 0x04, 0x6b, 0xbf, 0xf1, 0x12, 0xdf, 0xbd, 0xab, 0x37, 0x6d, 0x3e,
  0x09, 0xea, 0x99, 0x3b, 0x8e, 0xbd, 0x0c, 0xbe, 0x92, 0x00, 0xfd, 0x3d,
  0x22, 0x3d, 0xb0, 0x3d, 0xbe, 0xd1, 0x1f, 0xbd, 0x45, 0x11, 0xba, 0xbe,
  0x58, 0x4b, 0xe4, 0xbe, 0x1c, 0xb2, 0xea, 0xbe, 0x35, 0xaa, 0xf5, 0xbd,
  0x2c, 0xc1, 0xdc, 0xbe, 0x2c, 0xbb, 0xc8, 0xbd, 0x5a, 0xe0, 0x0a, 0xbe,
  0x16, 0xdb, 0xdd, 0x3c, 0xf4, 0x01, 0xad, 0x3d, 0xd9, 0x73, 0x20, 0x3c,
  0x3d, 0x90, 0xd6, 0xbe, 0x42, 0x71, 0x81, 0x3d, 0x08, 0x30, 0x87, 0xbe,
  0xf1, 0x60, 0x5d, 0xbc, 0xf7, 0x74, 0x0a, 0xbe, 0xca, 0x33, 0x97, 0x3d,
  0x17, 0xd0, 0x44, 0x3e, 0x14, 0x12, 0x39, 0xbe, 0x48, 0x83, 0x95, 0x3d,
  0x1d, 0x75, 0x43, 0xbe, 0x85, 0x95, 0xfd, 0x3a, 0xb5, 0xfb, 0x30, 0x3c,
  0xda, 0xeb, 0xb9, 0xbd, 0x99, 0x70, 0x48, 0xbe, 0xb6, 0x87, 0xea, 0xbe,
  0x12, 0xf1, 0x44, 0xbe, 0x33, 0x63, 0x18, 0x3d, 0x59, 0x3b, 0x32, 0xbe,
  0x58, 0x15, 0x5d, 0xbd, 0xfc, 0x00, 0x92, 0x3d, 0xf8, 0xb0, 0xa3, 0xbd,
  0xda, 0x51, 0x0f, 0xbe, 0x25, 0xda, 0xf0, 0xbe, 0x68, 0x22, 0xaa, 0x3e,
  0xec, 0x0d, 0x3a, 0x3f, 0x03, 0xe3, 0x12, 0x3e, 0x83, 0x70, 0x6c, 0xbe,
  0xf4, 0x48, 0xa6, 0xbd, 0x46, 0xdc, 0x3b, 0x3d, 0x35, 0x71, 0xb0, 0x3c,
  0xa5, 0x4e, 0x05, 0xbf, 0xcc, 0x37, 0x2e, 0x3e, 0x4b, 0x4c, 0x14, 0xbd,
  0x71, 0xca, 0x0a, 0xbe, 0x0e, 0xc8, 0x56, 0x3e, 0x3d, 0x84, 0x5b, 0xbe,
  0x6c, 0xe9, 0x18, 0xbb, 0x0d, 0x72, 0x5d, 0xbe, 0x8e, 0xef, 0x02, 0x3f,
  0x0b, 0xb1, 0x16, 0xbf, 0xa6, 0xeb, 0x4c, 0x3e, 0x9c, 0x40, 0xa9, 0xbe,
  0x86, 0x47, 0xc4, 0x3d, 0x62, 0xca, 0x90, 0xbd, 0x28, 0x79, 0x98, 0xbe,
  0xcd, 0xe2, 0xa6, 0xbe, 0x0b, 0x96, 0x33, 0xbe, 0x58, 0xf9, 0xaa, 0xbe,
  0x05, 0xde, 0x7a, 0x3e, 0xc5, 0x23, 0x6f, 0xbe, 0xea, 0x91, 0x82, 0xbc,
  0x66, 0x8f, 0x9b, 0xbd, 0x30, 0xdb, 0xc9, 0xbe, 0x2e, 0x4e, 0xf3, 0xbe,
  0xe6, 0x5c, 0x0e, 0xbe, 0x35, 0xe1, 0x98, 0xbd, 0x44, 0x38, 0xb9, 0x3d,
  0x5b, 0x3e, 0xe3, 0xbc, 0x71, 0x7c, 0x09, 0xbf, 0x75, 0xeb, 0x73, 0xbd,
  0x4e, 0xda, 0xca, 0x3d, 0x41, 0x41, 0x90, 0xbe, 0x72, 0x06, 0x83, 0xbe,
  0x3b, 0x6c, 0xc5, 0x3d, 0x36, 0xc0, 0xba, 0x3e, 0x50, 0xb8, 0x92, 0x3e,
  0xc3, 0x8d, 0x32, 0xbd, 0xf1, 0xbb, 0xa5, 0x3d, 0x6f, 0x6b, 0xaf, 0x3d,
  0xda, 0x24, 0xdf, 0xbd, 0x40, 0xcb, 0xff, 0xbd, 0x80, 0xbb, 0xf1, 0xbd,
  0x43, 0x7b, 0xb8, 0xbe, 0xc0, 0xd7, 0x8e, 0x3e, 0x36, 0x7a, 0x65, 0xbe,
  0x3f, 0x69, 0x0f, 0xbe, 0x8d, 0xe5, 0x81, 0x3e, 0xde, 0xb9, 0x21, 0xbe,
  0x9c, 0xff, 0x41, 0xbe, 0x60, 0xb8, 0x0b, 0x3e, 0xfd, 0xc6, 0x4f, 0x3e,
  0x68, 0xed, 0xb8, 0xbe, 0x4a, 0x0e, 0x1b, 0xbe, 0x06, 0x0a, 0xaa, 0xbd,
  0x36, 0x2f, 0x8f, 0xbe, 0xe0, 0x3c, 0x4a, 0xbf, 0xd1, 0xb2, 0x2c, 0xbe,
  0x83, 0x76, 0xc5, 0xbc, 0x9a, 0x80, 0xb3, 0xbd, 0x13, 0xa3, 0xfc, 0xbe,
  0x38, 0x0b, 0xe4, 0xbe, 0x38, 0x0c, 0x0d, 0x3d, 0x58, 0xb9, 0x05, 0xbe,
  0xc5, 0x53, 0x2b, 0xbe, 0x01, 0xca, 0x02, 0x3e, 0x63, 0xc5, 0x7c, 0xbc,
  0x83, 0x73, 0x20, 0x3e, 0x44, 0x2c, 0x68, 0xbf, 0x92, 0x6b, 0xf1, 0xbe,
  0x52, 0xa9, 0x02, 0x3e, 0xb0, 0x9b, 0xc5, 0xbe, 0x8d, 0xc5, 0x08, 0xbe,
  0x76, 0xc6, 0xeb, 0xbd, 0x58, 0xdd, 0x94, 0xbd, 0x82, 0xea, 0x0b, 0xbf,
  0x62, 0xee, 0xf0, 0x3c, 0x56, 0xff, 0x55, 0xbd, 0xac, 0x1c, 0x69, 0xbd,
  0x14, 0xc1, 0x6f, 0x3b, 0x8a, 0x73, 0xb3, 0x3d, 0x26, 0xc7, 0x4c, 0x3d,
  0xf0, 0x57, 0x51, 0xbc, 0x2a, 0xf4, 0x24, 0xbf, 0x0a, 0x25, 0x89, 0xbd,
  0x5b, 0x0a, 0x88, 0x3e, 0x8d, 0xa2, 0x73, 0xbe, 0xe5, 0x4b, 0xa4, 0x3b,
  0xf8, 0x2c, 0xc4, 0x3d, 0x3d, 0xc9, 0xaa, 0x3e, 0xd2, 0x3d, 0xaf, 0x3c,
  0x8e, 0xe2, 0x9c, 0xbe, 0x33, 0x30, 0x2f, 0xbd, 0x7d, 0x06, 0x07, 0x3b,
  0xda, 0x39, 0x6d, 0xbe, 0x2a, 0xe4, 0xbb, 0x3d, 0x45, 0xeb, 0x89, 0x3e,
  0xe4, 0x30, 0x45, 0x3e, 0x18, 0x6c, 0xf6, 0x3c, 0x40, 0x03, 0x9f, 0xbd,
  0x9e, 0x3e, 0xbe, 0xbb, 0x00, 0x66, 0xf5, 0x3c, 0x26, 0x5b, 0x9b, 0xbe,
  0xcb, 0xbe, 0xa8, 0x3d, 0x64, 0x08, 0x23, 0xbe, 0x28, 0x19, 0x33, 0xbd,
  0x41, 0xa3, 0x6e, 0xbf, 0xda, 0x01, 0x4a, 0xbf, 0x46, 0x99, 0x4d, 0xbf,
  0x05, 0xb3, 0x38, 0xbe, 0x6c, 0x6c, 0x83, 0xbf, 0x54, 0x04, 0x38, 0xbf,
  0x40, 0x24, 0x2f, 0xbf, 0x5d, 0x2c, 0xb4, 0x3d, 0x11, 0xa3, 0xfb, 0x3e,
  0xaf, 0x83, 0x04, 0xbe, 0x83, 0x35, 0xa7, 0x3d, 0xa7, 0x06, 0xcf, 0x3e,
  0xbb, 0x1a, 0x4a, 0xbe, 0x1e, 0x10, 0x03, 0x3d, 0x9e, 0x99, 0x8c, 0x3d,
  0xe5, 0x98, 0x98, 0x3d, 0x42, 0xab, 0x88, 0x3e, 0x52, 0xb0, 0xf1, 0x3d,
  0x49, 0x13, 0xd7, 0x3d, 0xa1, 0x81, 0x00, 0x3e, 0x98, 0x0e, 0x24, 0x3d,
  0x30, 0xba, 0x67, 0xbd, 0x24, 0x32, 0x0c, 0xbe, 0xcf, 0x71, 0x19, 0xbd,
  0xaf, 0x0a, 0x02, 0x3d, 0xe1, 0xe5, 0x19, 0xbd, 0xbd, 0x08, 0xe8, 0xbc,
  0x30, 0xb7, 0x78, 0xbd, 0x2d, 0xb1, 0x1b, 0x3d, 0xd2, 0xc2, 0xe3, 0xbd,
  0x24, 0x97, 0x7a, 0xbd, 0x8d, 0x79, 0x1e, 0x3c, 0x47, 0x28, 0x65, 0xbe,
  0x7e, 0x31, 0x8a, 0x3d, 0x0a, 0xa2, 0x25, 0xbe, 0xfe, 0xda, 0xe2, 0xbd,
  0x64, 0x13, 0xf5, 0x3d, 0x91, 0xbf, 0x52, 0x3e, 0x2a, 0xec, 0x04, 0xbc,
  0x4c, 0x7d, 0x88, 0x3d, 0x0a, 0x52, 0x50, 0xbe, 0xef, 0xaa, 0x34, 0x3e,
  0xe6, 0xba, 0x37, 0xbe, 0xae, 0x97, 0x39, 0x3e, 0xc6, 0x75, 0x47, 0x3d,
  0x81, 0xb1, 0xcc, 0xbd, 0xa1, 0x9f, 0x37, 0xbd, 0xdb, 0x8e, 0x21, 0x3e,
  0x10, 0xe6, 0x0f, 0xbe, 0x94, 0x96, 0x8a, 0xbd, 0xdd, 0x3f, 0x21, 0xbe,
  0xee, 0xb1, 0x04, 0xbe, 0xe7, 0xc8, 0xc5, 0xbd, 0x35, 0xba, 0xfe, 0xbd,
  0xe3, 0xe9, 0x47, 0xbe, 0x94, 0xcc, 0xe9, 0x3e, 0xd6, 0xf6, 0xa6, 0x3d,
  0x03, 0xb5, 0x85, 0xbd, 0x13, 0x34, 0x6b, 0x3d, 0xaa, 0xda, 0xe2, 0x3d,
  0xfe, 0x36, 0x57, 0xbe, 0x9a, 0xb8, 0xa8, 0x3c, 0x5d, 0x99, 0x02, 0x3e,
  0x74, 0xef, 0xff, 0xff, 0x78, 0xef, 0xff, 0xff, 0x7c, 0xef, 0xff, 0xff,
  0x80, 0xef, 0xff, 0xff, 0x84, 0xef, 0xff, 0xff, 0x88, 0xef, 0xff, 0xff,
  0xd2, 0xf6, 0xff, 0xff, 0x04, 0x00, 0x00, 0x00, 0x00, 0x07, 0x00, 0x00,
  0xf9, 0xef, 0x04, 0xe1, 0xd7, 0xe4, 0x01, 0xdc, 0xd6, 0xde, 0x0e, 0xe5,
  0xd3, 0xfb, 0xf9, 0xc9, 0xd8, 0xcf, 0x12, 0xe0, 0xdb, 0x0a, 0xf9, 0x1a,
  0x03, 0x08, 0xe2, 0x0b, 0xdc, 0xdd, 0x0c, 0xe3, 0xd7, 0xf3, 0x06, 0xea,
  0x0e, 0x0c, 0xe6, 0x1d, 0xec, 0x01, 0xd8, 0xfc, 0x11, 0xd4, 0xf0, 0xe6,
  0xeb, 0xed, 0x09, 0xf7, 0x0b, 0xfb, 0xd0, 0x0c, 0xfb, 0x11, 0xe8, 0xe3,
  0xe2, 0xfa, 0xf7, 0xfb, 0xec, 0x14, 0xe7, 0xf6, 0xe3, 0xf5, 0x05, 0x0e,
  0xfe, 0xee, 0xd8, 0x08, 0xfb, 0xff, 0xf5, 0xde, 0xdf, 0xdc, 0xf1, 0xe6,
  0xee, 0xe7, 0xd2, 0xf3, 0xfb, 0x15, 0xf0, 0xdf, 0xeb, 0xfb, 0xf7, 0xdf,
  0x1e, 0x04, 0xda, 0xfc, 0x00, 0xec, 0xeb, 0xdf, 0xda, 0xc2, 0xf6, 0x09,
  0xfc, 0xdd, 0x03, 0xe7, 0x02, 0x25, 0x0e, 0x37, 0xe4, 0xcf, 0x09, 0x41,
  0xc7, 0x21, 0xee, 0x97, 0xbf, 0xfc, 0x30, 0xd9, 0xdf, 0x10, 0xee, 0xfd,
  0xf3, 0x09, 0x19, 0xd9, 0xea, 0x05, 0x14, 0x1c, 0xcb, 0xfc, 0xff, 0xf2,
  0xed, 0x12, 0x07, 0xf4, 0x04, 0x01, 0x03, 0xf2, 0xc4, 0xea, 0xfc, 0x05,
  0xfa, 0xfa, 0xf9, 0xfb, 0xd6, 0x23, 0xd7, 0xf5, 0xf0, 0x15, 0xfc, 0xfe,
  0xa1, 0xe2, 0x01, 0xdb, 0xd2, 0xf9, 0x14, 0xf0, 0xd9, 0x0c, 0xf3, 0x07,
  0x23, 0xdf, 0x12, 0xe3, 0xb2, 0x4c, 0x07, 0xe1, 0xd9, 0xfe, 0x0d, 0xf1,
  0xe4, 0x02, 0xff, 0xf6, 0x28, 0xcb, 0x25, 0x27, 0xde, 0x39, 0xf1, 0x1c,
  0xed, 0x1e, 0x29, 0x08, 0xf4, 0xfa, 0xde, 0xfb, 0xf1, 0xd3, 0x40, 0x0e,
  0xf5, 0xea, 0xef, 0xf3, 0x07, 0x1e, 0x31, 0x16, 0x14, 0xfb, 0x05, 0x19,
  0xff, 0xdf, 0x04, 0x15, 0xb6, 0x2e, 0x97, 0x02, 0xe1, 0xf8, 0x5a, 0xf9,
  0xe1, 0xf8, 0x03, 0xf5, 0x07, 0x36, 0x17, 0xe0, 0xdb, 0x03, 0xe4, 0xf6,
  0xf5, 0xfc, 0xdf, 0xfb, 0xe4, 0x08, 0x1f, 0xec, 0x10, 0x0c, 0x10, 0xfb,
  0xe0, 0xd5, 0xd9, 0xe9, 0xf1, 0x03, 0x2a, 0xf6, 0xe7, 0x07, 0x02, 0xf4,
  0x16, 0x03, 0x09, 0x12, 0xc0, 0xe8, 0xba, 0xc5, 0xe4, 0x05, 0x20, 0xff,
  0xe6, 0x02, 0x12, 0xfb, 0x19, 0xef, 0x14, 0x03, 0xc5, 0x1b, 0xe4, 0xe5,
  0x08, 0x0e, 0x27, 0x03, 0xc7, 0x19, 0x14, 0xf1, 0x41, 0xd6, 0x31, 0xfa,
  0xb1, 0xfc, 0xc8, 0xd1, 0xfa, 0x04, 0x25, 0x0a, 0x12, 0x18, 0xf9, 0x08,
  0xfa, 0xe1, 0x17, 0x2d, 0x0b, 0xca, 0x93, 0xb1, 0xf8, 0x12, 0x29, 0xf9,
  0x26, 0xf7, 0x05, 0xd6, 0xfa, 0x13, 0xe3, 0xc9, 0x01, 0x1a, 0xec, 0x07,
  0x24, 0x07, 0xe2, 0x0a, 0x16, 0x14, 0x26, 0x01, 0xfa, 0x1f, 0x05, 0x11,
  0xf2, 0xee, 0xc5, 0xe1, 0xd0, 0x1a, 0x0d, 0x16, 0x15, 0x02, 0x0d, 0x02,
  0xdf, 0x03, 0xe8, 0x25, 0x23, 0x02, 0xe8, 0xf8, 0x08, 0x1a, 0xd0, 0x00,
  0x39, 0xe3, 0x17, 0x07, 0xcf, 0x2e, 0xe4, 0x06, 0x20, 0xeb, 0x03, 0x01,
  0x08, 0xf6, 0xf0, 0x01, 0x06, 0x03, 0x12, 0x02, 0xf3, 0x68, 0xfe, 0x18,
  0xfe, 0xfe, 0xe4, 0xf6, 0x1e, 0xf4, 0x1b, 0xe9, 0xf9, 0xea, 0x08, 0xfc,
  0x02, 0x4b, 0xe9, 0xd9, 0xde, 0x08, 0xfe, 0xd4, 0xe7, 0xeb, 0xee, 0xe9,
  0x2b, 0xec, 0xea, 0xe5, 0xf5, 0x34, 0xc9, 0xe8, 0x11, 0x03, 0xee, 0xdb,
  0x04, 0xf6, 0x0c, 0xda, 0xc8, 0xd2, 0x2c, 0xdf, 0x06, 0xf0, 0xfe, 0x00,
  0x23, 0xe9, 0x28, 0x25, 0xe7, 0xb8, 0xb4, 0x17, 0xb6, 0xed, 0xff, 0xfd,
  0xf5, 0xfe, 0xed, 0xf0, 0xf7, 0x03, 0xee, 0x11, 0x0a, 0xe2, 0xeb, 0xde,
  0xee, 0x10, 0xf2, 0xe8, 0x05, 0xdc, 0x02, 0xd2, 0xdd, 0xfc, 0x21, 0xe6,
  0x2d, 0x11, 0x11, 0xdb, 0xe4, 0x22, 0x13, 0xe2, 0xfb, 0xdd, 0x10, 0xe9,
  0xf3, 0xd8, 0x1f, 0x26, 0x40, 0xfe, 0xe1, 0xfb, 0xc0, 0x13, 0x2f, 0xf9,
  0xf0, 0xd9, 0x0b, 0xf0, 0xf9, 0xcb, 0x26, 0x21, 0x0f, 0x0c, 0xe4, 0xe8,
  0xc6, 0xff, 0x2b, 0xf6, 0xdf, 0xcd, 0x36, 0xff, 0xfd, 0xeb, 0x21, 0x0d,
  0x4a, 0xe8, 0xf9, 0xeb, 0x13, 0x16, 0x39, 0xfb, 0xfd, 0x07, 0xfb, 0x16,
  0x14, 0x1f, 0x12, 0x18, 0x2c, 0xea, 0x07, 0x11, 0x03, 0x12, 0x1c, 0x20,
  0x34, 0xb2, 0xdb, 0x1b, 0xd5, 0x13, 0xf6, 0xf8, 0xcb, 0xf8, 0x3a, 0xfb,
  0x00, 0xc3, 0x03, 0xe0, 0x2f, 0x0f, 0x1e, 0xf7, 0xf2, 0xf6, 0x18, 0x18,
  0x0d, 0xf2, 0xf0, 0x0c, 0x05, 0xe2, 0x0a, 0xee, 0x14, 0x2d, 0x27, 0x12,
  0xd7, 0xd8, 0x00, 0xfb, 0x19, 0xf8, 0xff, 0xff, 0xf1, 0xe2, 0x2a, 0xee,
  0x20, 0x29, 0x18, 0x26, 0xec, 0xf5, 0x14, 0xf0, 0x37, 0xef, 0x01, 0xf6,
  0xf6, 0xd4, 0x27, 0xeb, 0x21, 0x0f, 0x12, 0x13, 0xe4, 0xfd, 0x13, 0xe9,
  0x2c, 0xf6, 0x13, 0x1f, 0xc8, 0xe9, 0x1c, 0xe0, 0x1f, 0xe5, 0x19, 0x2a,
  0xc7, 0xc3, 0xfa, 0x0a, 0xfd, 0x00, 0x14, 0xff, 0x15, 0xe6, 0x21, 0xe8,
  0x0c, 0xe5, 0x2b, 0x20, 0x19, 0xf8, 0xef, 0xf3, 0x23, 0x2b, 0x09, 0x1f,
  0xb8, 0xd8, 0xe3, 0xee, 0xde, 0x05, 0xd5, 0x34, 0xfb, 0xdf, 0xc9, 0xe2,
  0xdd, 0x08, 0xf9, 0xef, 0xe4, 0xe1, 0xf9, 0xd3, 0xe0, 0xf4, 0xd2, 0x62,
  0xf5, 0xcc, 0xd7, 0xdb, 0x04, 0xef, 0x42, 0xd5, 0x02, 0x0d, 0xe6, 0xd5,
  0xd9, 0x11, 0xec, 0x10, 0xd1, 0xfb, 0xe7, 0x06, 0xdf, 0xdf, 0x75, 0xc5,
  0xfc, 0xe1, 0x18, 0xdb, 0xe0, 0xf6, 0xbf, 0x13, 0xee, 0xdf, 0xfa, 0x08,
  0xf1, 0x06, 0x51, 0xe9, 0xcf, 0xed, 0xd6, 0xde, 0xf5, 0x38, 0xd5, 0x2a,
  0xd2, 0xef, 0xf7, 0x02, 0xe2, 0xed, 0x3c, 0xd2, 0xf6, 0xdf, 0xf3, 0xdf,
  0xee, 0x02, 0xfd, 0x08, 0xd8, 0xdd, 0x03, 0x02, 0xe4, 0xec, 0x57, 0xf5,
  0xf6, 0xfe, 0x0d, 0xcd, 0xe8, 0xd4, 0xf2, 0xdf, 0xe6, 0xbd, 0xe3, 0xf4,
  0xd7, 0xe0, 0x3b, 0xe8, 0xef, 0xf1, 0x00, 0xec, 0x0e, 0xf5, 0x00, 0xf2,
  0xf3, 0x18, 0xf7, 0x04, 0x2e, 0xce, 0xe8, 0xea, 0x41, 0xb6, 0x0c, 0xbf,
  0xe8, 0x29, 0x06, 0xe4, 0x3a, 0xd7, 0x0a, 0x02, 0xe9, 0xd7, 0x16, 0xfa,
  0x1d, 0x03, 0x22, 0xbe, 0xa8, 0x04, 0x0f, 0xe1, 0x22, 0xce, 0xe1, 0x0f,
  0xff, 0xf4, 0x08, 0x0c, 0x20, 0x10, 0xf5, 0xfb, 0xcb, 0xf7, 0x08, 0x18,
  0xff, 0xdc, 0x02, 0x01, 0xdb, 0x05, 0xea, 0x02, 0x14, 0x0e, 0x0d, 0x22,
  0xd6, 0x5b, 0xfd, 0x0f, 0x00, 0x18, 0xef, 0x12, 0xf1, 0x27, 0x05, 0x15,
  0x1e, 0x0a, 0x18, 0x0e, 0xf0, 0x32, 0xe4, 0x11, 0x0e, 0x27, 0xec, 0x00,
  0xe8, 0x24, 0x04, 0xff, 0xfd, 0x0b, 0xe0, 0xf1, 0xc1, 0x30, 0xb1, 0xdb,
  0x0b, 0xfc, 0xe4, 0xf5, 0x00, 0xf6, 0xfd, 0xce, 0xdd, 0x20, 0x1e, 0x00,
  0x12, 0xb2, 0xda, 0x40, 0xec, 0x04, 0xf2, 0xc5, 0xe7, 0xf7, 0xe7, 0xad,
  0x0f, 0xef, 0x0f, 0xeb, 0x11, 0x0f, 0xd7, 0x12, 0xf4, 0x0f, 0xf2, 0x25,
  0xf4, 0xf8, 0xda, 0xfc, 0xee, 0xec, 0x10, 0xd2, 0x0d, 0xfd, 0xf9, 0xf4,
  0x03, 0x14, 0x09, 0x12, 0xf9, 0x02, 0x0a, 0xe2, 0x0d, 0x06, 0xe7, 0xea,
  0x05, 0xdd, 0xfc, 0x16, 0xf4, 0x1d, 0x17, 0xff, 0xd7, 0xef, 0x12, 0x08,
  0x18, 0xef, 0x10, 0xe4, 0x06, 0xfc, 0xef, 0x12, 0xf8, 0x10, 0x1f, 0xff,
  0xfb, 0xec, 0xe8, 0xd1, 0x06, 0xec, 0x2d, 0xde, 0x08, 0xd7, 0xf9, 0xf4,
  0xfe, 0x02, 0x0b, 0x1a, 0xcb, 0x00, 0x21, 0xe6, 0x17, 0xfa, 0x12, 0xf7,
  0xfd, 0xdc, 0x17, 0x08, 0xe9, 0xef, 0xf4, 0xf0, 0xea, 0x0d, 0xfc, 0xc5,
  0xcf, 0xcb, 0x34, 0xe9, 0xf3, 0xda, 0x0e, 0x0e, 0x0e, 0x01, 0x1a, 0x12,
  0x14, 0xe3, 0xb2, 0xfe, 0xf0, 0xfd, 0x23, 0xef, 0xf7, 0x09, 0xe2, 0x0e,
  0xfd, 0x10, 0x0c, 0xe9, 0x0d, 0xd6, 0x0f, 0xf0, 0xff, 0xe6, 0x0e, 0xee,
  0xfc, 0x15, 0x15, 0xf5, 0xe3, 0x03, 0x1d, 0x19, 0x3e, 0xd6, 0x15, 0xe7,
  0xf4, 0xd5, 0xfa, 0xec, 0x0a, 0xd7, 0x02, 0x1a, 0xfa, 0x1e, 0x0f, 0x09,
  0x27, 0x03, 0x09, 0x10, 0xf5, 0xe9, 0xe6, 0xef, 0xee, 0x15, 0x20, 0x02,
  0xf3, 0xd6, 0xfe, 0x00, 0x06, 0xde, 0x04, 0xdc, 0x1e, 0x01, 0xf0, 0xea,
  0xfd, 0xec, 0x28, 0x13, 0xd1, 0xe5, 0xe7, 0x02, 0x34, 0xf3, 0x0b, 0xf7,
  0x23, 0xef, 0x0c, 0xdd, 0x01, 0x02, 0xfd, 0x12, 0x0e, 0xdb, 0xf6, 0xf4,
  0x52, 0xf7, 0x15, 0xe3, 0xf2, 0xd3, 0x42, 0xde, 0xec, 0xc7, 0xc9, 0xf2,
  0x16, 0xe2, 0x19, 0x1c, 0xf3, 0xce, 0xc9, 0xff, 0xf2, 0xfc, 0x34, 0xfe,
  0xf7, 0xcd, 0xee, 0xee, 0x19, 0x20, 0x07, 0x22, 0x3a, 0xe3, 0x05, 0xf9,
  0x0e, 0xf4, 0x19, 0xfd, 0x1a, 0xff, 0xf7, 0xf2, 0x10, 0x1c, 0x06, 0x07,
  0x25, 0xf6, 0x15, 0xef, 0xd2, 0xfc, 0x0c, 0xc6, 0x08, 0xce, 0x34, 0xef,
  0x0c, 0xf6, 0x1b, 0x15, 0x3b, 0x13, 0x00, 0xfe, 0xd0, 0x03, 0x26, 0xcd,
  0xd1, 0xc3, 0x14, 0xe1, 0x1f, 0xd6, 0x26, 0x0d, 0x0e, 0xee, 0xfa, 0xf6,
  0xbe, 0x05, 0x29, 0xfc, 0xcf, 0xe9, 0x18, 0xc9, 0x11, 0x10, 0x2a, 0xf7,
  0x5e, 0xd7, 0x05, 0x00, 0x1e, 0xf0, 0x3f, 0x09, 0x0a, 0x2c, 0x29, 0xed,
  0x27, 0x1c, 0x1c, 0x2a, 0xe2, 0xd2, 0xdc, 0x1b, 0xf2, 0x26, 0x07, 0x2b,
  0xed, 0xe3, 0xf4, 0x3e, 0xcd, 0xb3, 0xbd, 0x81, 0x92, 0xf4, 0x05, 0xdf,
  0xc7, 0x0d, 0x0b, 0xfe, 0x1d, 0x1c, 0x2d, 0xd3, 0xc7, 0xc9, 0xee, 0xf4,
  0x04, 0xf1, 0xee, 0xdf, 0xe0, 0x20, 0xf7, 0xfa, 0x1d, 0x1f, 0x1b, 0xf8,
  0xdb, 0xa7, 0xc4, 0xd6, 0xed, 0xf7, 0x16, 0xfe, 0xf0, 0x10, 0xd7, 0x02,
  0x23, 0x16, 0x2d, 0x0b, 0xcf, 0xff, 0xf7, 0xa5, 0xf1, 0x04, 0x08, 0xe5,
  0xc5, 0x0e, 0x14, 0x07, 0x2d, 0xee, 0x13, 0x13, 0xad, 0x4e, 0x01, 0xa8,
  0xf0, 0x04, 0x18, 0xf1, 0xe2, 0xfc, 0x33, 0xfe, 0x36, 0xd3, 0x08, 0x15,
  0xdc, 0x1b, 0xf4, 0xfb, 0x00, 0x1a, 0x00, 0x13, 0xcf, 0xfa, 0xfe, 0xfe,
  0x1a, 0xbd, 0x53, 0x14, 0xe6, 0xe4, 0xfd, 0xe5, 0x12, 0x1d, 0x04, 0x18,
  0x04, 0x1f, 0x07, 0x1e, 0x0c, 0xbd, 0xb0, 0x3b, 0xdd, 0x00, 0x10, 0xbe,
  0xb3, 0x01, 0x19, 0xbb, 0xe1, 0x00, 0x04, 0xe7, 0x08, 0xf2, 0x08, 0xf1,
  0xda, 0xd7, 0x2a, 0x19, 0xeb, 0xf2, 0x10, 0x09, 0x08, 0x03, 0x0a, 0xeb,
  0xed, 0xdb, 0x50, 0x13, 0xce, 0xee, 0xe4, 0x19, 0x10, 0x02, 0xf7, 0x03,
  0xeb, 0x0c, 0x11, 0xf4, 0xf0, 0xed, 0xe5, 0x00, 0xc5, 0x02, 0xf6, 0x12,
  0xd1, 0xff, 0x04, 0xbc, 0xfe, 0x14, 0xea, 0xf7, 0xcf, 0x0a, 0xe9, 0x15,
  0xdc, 0x03, 0x14, 0x08, 0xf7, 0xfa, 0x0c, 0xdb, 0xef, 0x02, 0xeb, 0xf1,
  0x12, 0xef, 0xf0, 0xf8, 0xea, 0x03, 0x17, 0xe8, 0xd8, 0xef, 0xe3, 0xf7,
  0x10, 0x19, 0xfc, 0xec, 0x06, 0xdd, 0x1b, 0xf4, 0xbf, 0x00, 0x0d, 0x0f,
  0x12, 0xf3, 0xd1, 0xd0, 0xef, 0xe8, 0x44, 0xea, 0x01, 0xd5, 0x08, 0xf7,
  0xe1, 0x14, 0xdf, 0x05, 0xf1, 0xd9, 0xde, 0xed, 0x04, 0xeb, 0x28, 0xf0,
  0x00, 0x01, 0x1c, 0xfa, 0xe5, 0xf2, 0xfc, 0xf5, 0x03, 0xb3, 0xf8, 0xf7,
  0x06, 0xce, 0x15, 0xbc, 0xf8, 0x05, 0xf7, 0xe8, 0xf6, 0x07, 0xfc, 0xee,
  0x1e, 0xe1, 0x14, 0xf0, 0xff, 0xd0, 0x33, 0xe2, 0xfb, 0xf7, 0x09, 0x1a,
  0xfc, 0x1b, 0x37, 0x26, 0x00, 0xc3, 0x01, 0x00, 0xde, 0xf4, 0x44, 0xf1,
  0x0b, 0x0f, 0xf7, 0x03, 0x0d, 0x23, 0x15, 0x37, 0xf8, 0xef, 0xeb, 0xff,
  0xea, 0xe4, 0x1b, 0xe9, 0xf4, 0xeb, 0xf7, 0xf8, 0x0d, 0x03, 0x2b, 0x2b,
  0x2e, 0xd5, 0x13, 0x01, 0x02, 0xdd, 0x33, 0xe5, 0x1a, 0x1d, 0x13, 0xf8,
  0x0f, 0xeb, 0x0f, 0x26, 0x1a, 0xe4, 0x05, 0x0a, 0x0b, 0xbf, 0xd8, 0xd9,
  0xf8, 0x41, 0xe6, 0xce, 0x18, 0x07, 0xf2, 0xff, 0xef, 0x28, 0x97, 0x17,
  0x24, 0x0b, 0xf2, 0xf8, 0xc6, 0x2d, 0x05, 0x1a, 0xfd, 0x0d, 0xe7, 0xef,
  0xb8, 0x1c, 0x08, 0x2c, 0x31, 0x0a, 0x0e, 0x01, 0xd1, 0x05, 0xcc, 0xfa,
  0x1e, 0xfe, 0x00, 0x09, 0xf2, 0x1b, 0xf8, 0x0a, 0x49, 0x0c, 0x01, 0x08,
  0xd3, 0x04, 0xe4, 0x05, 0x0e, 0xf1, 0x23, 0xe8, 0x1a, 0x10, 0xea, 0xc7,
  0xfc, 0xe7, 0x08, 0xf5, 0x03, 0x32, 0xdd, 0x17, 0x08, 0x28, 0xf1, 0x00,
  0xfe, 0xe6, 0xe5, 0xe6, 0x1f, 0xd8, 0x17, 0xe0, 0x02, 0x1e, 0xef, 0xdb,
  0xf5, 0x0c, 0xeb, 0xf4, 0x1d, 0xd4, 0xe8, 0xe7, 0x26, 0xda, 0xf4, 0xcb,
  0x05, 0x04, 0xd6, 0xe1, 0x16, 0x03, 0x00, 0x0c, 0xf8, 0xe8, 0xd9, 0xf0,
  0xbc, 0xea, 0x11, 0xe5, 0xe5, 0xf8, 0xe3, 0x0c, 0xdb, 0xd6, 0xfe, 0xce,
  0xdb, 0x04, 0xec, 0xbe, 0xdd, 0xe7, 0x16, 0xcc, 0xf5, 0xff, 0xd8, 0x0e,
  0xfe, 0x00, 0xf3, 0xf3, 0xd4, 0xf4, 0x53, 0xe3, 0x04, 0xf0, 0x20, 0xdc,
  0xe8, 0xea, 0xea, 0x16, 0xeb, 0xeb, 0x09, 0xe9, 0x00, 0x0f, 0x3c, 0xda,
  0xdb, 0x03, 0x07, 0xfc, 0xff, 0x13, 0xe9, 0xf7, 0x01, 0xd3, 0x08, 0xea,
  0xd8, 0xf7, 0x58, 0xef, 0xd5, 0x0e, 0x18, 0xf4, 0x02, 0x07, 0xed, 0x11,
  0xe8, 0xd9, 0xff, 0x00, 0xe6, 0xe0, 0x3f, 0xea, 0xf7, 0xea, 0x09, 0xd7,
  0x0d, 0xe9, 0xed, 0x09, 0xea, 0xe9, 0x14, 0xef, 0xfb, 0xf7, 0x30, 0xd9,
  0xe4, 0xf4, 0xe3, 0xec, 0xed, 0x0d, 0xf2, 0xdc, 0xdb, 0xc0, 0xe1, 0xd4,
  0xe6, 0xe3, 0x48, 0xbd, 0xde, 0xfd, 0xff, 0xff, 0x04, 0x00, 0x00, 0x00,
  0x20, 0x00, 0x00, 0x00, 0x2c, 0x69, 0x9c, 0xba, 0x01, 0x25, 0x95, 0x3e,
  0x72, 0x1f, 0x84, 0xbf, 0x92, 0x07, 0x77, 0xbe, 0x8c, 0x3d, 0x05, 0x3f,
  0xd7, 0x45, 0x9a, 0xbf, 0x20, 0x8e, 0xa8, 0xbf, 0x4a, 0x13, 0x2a, 0x3d,
  0x0a, 0xfe, 0xff, 0xff, 0x04, 0x00, 0x00, 0x00, 0x40, 0x00, 0x00, 0x00,
  0x29, 0x74, 0x0b, 0xbe, 0x2a, 0xc4, 0xa1, 0x3e, 0x5f, 0xf2, 0x74, 0xbe,
  0x54, 0xcd, 0x69, 0xbf, 0x43, 0x28, 0x71, 0xbc, 0x53, 0x70, 0x47, 0xbf,
  0xd1, 0x60, 0xf6, 0x3e, 0x70, 0x11, 0x2c, 0x3e, 0x1f, 0x23, 0xb1, 0xbf,
  0xed, 0x64, 0xb3, 0xbf, 0x4f, 0x72, 0x74, 0xbf, 0xd1, 0x79, 0x80, 0xbf,
  0xc8, 0xe6, 0xfd, 0xbe, 0x11, 0xf0, 0x42, 0xbe, 0x06, 0x50, 0xce, 0x3f,
  0xd2, 0xc1, 0x80, 0x3e, 0x56, 0xfe, 0xff, 0xff, 0x04, 0x00, 0x00, 0x00,
  0x0c, 0x00, 0x00, 0x00, 0xc7, 0xfa, 0x3c, 0x3e, 0x6d, 0xa6, 0x1b, 0xbf,
  0x68, 0x4e, 0xab, 0xbe, 0x6e, 0xfe, 0xff, 0xff, 0x04, 0x00, 0x00, 0x00,
  0xc0, 0x00, 0x00, 0x00, 0x51, 0x27, 0x19, 0x3e, 0xbd, 0xcd, 0xbf, 0x3e,
  0xe7, 0x9a, 0x88, 0xbd, 0xd0, 0xa7, 0x74, 0x3e, 0x8e, 0xae, 0x5e, 0x3d,
  0x56, 0xa4, 0x51, 0xbe, 0x44, 0xc0, 0xe8, 0x3e, 0x40, 0x6a, 0x49, 0x3e,
  0x7a, 0xd0, 0xca, 0xbb, 0x91, 0x90, 0x40, 0xbe, 0xc9, 0xe1, 0xe4, 0xbe,
  0x8a, 0x60, 0x2c, 0xbd, 0xea, 0x85, 0x21, 0xbe, 0x5f, 0xa2, 0x79, 0xbe,
  0xaf, 0x62, 0xfc, 0xbe, 0xf5, 0x3c, 0x38, 0x3e, 0xd5, 0xee, 0xab, 0xbd,
  0x0e, 0x50, 0xa3, 0x3e, 0x86, 0x29, 0xad, 0xbd, 0xe3, 0x7b, 0x1e, 0x3e,
  0x8c, 0x46, 0xd2, 0x3d, 0xc8, 0x08, 0xa2, 0xbd, 0xd6, 0xc8, 0x46, 0xbf,
  0x8c, 0x20, 0x10, 0x3e, 0x41, 0xf0, 0x74, 0x3e, 0x41, 0xbd, 0x48, 0xbd,
  0xef, 0x7a, 0xd0, 0xbe, 0x69, 0xcd, 0xf9, 0xbc, 0x2f, 0xf2, 0x5e, 0xbd,
  0xd6, 0x03, 0xb9, 0xbd, 0x18, 0x66, 0x0e, 0xbf, 0x00, 0xca, 0xa9, 0xbf,
  0x28, 0x78, 0xaa, 0xbe, 0x95, 0xdd, 0xd3, 0x3e, 0x24, 0x21, 0x0c, 0x3d,
  0x13, 0xe7, 0x40, 0x3e, 0xe9, 0xc4, 0x1b, 0x3d, 0x11, 0x43, 0x7c, 0xbd,
  0xd0, 0xbb, 0x2e, 0xbe, 0x38, 0x47, 0xc8, 0x3d, 0x99, 0xa1, 0x8f, 0x3e,
  0xa8, 0x52, 0x09, 0xbe, 0x78, 0x86, 0xf0, 0xbe, 0x24, 0x59, 0xa7, 0xbb,
  0xb1, 0xc0, 0xca, 0x3c, 0x34, 0x9a, 0x18, 0xbe, 0xc2, 0x4a, 0x10, 0xbf,
  0xee, 0x18, 0x17, 0xbf, 0x3a, 0xff, 0xff, 0xff, 0x04, 0x00, 0x00, 0x00,
  0x40, 0x00, 0x00, 0x00, 0x08, 0xbf, 0xa3, 0xbe, 0x28, 0x45, 0xde, 0x3f,
  0x08, 0x9f, 0x7f, 0x3f, 0x00, 0x8a, 0x2f, 0x3f, 0xd6, 0xd0, 0x20, 0xbf,
  0xc1, 0xd8, 0x94, 0x3f, 0xa6, 0x2e, 0x4b, 0x3f, 0xed, 0x97, 0x4a, 0xbf,
  0x11, 0x46, 0x21, 0xbe, 0x81, 0x31, 0xb2, 0xbe, 0x81, 0xac, 0x91, 0xbe,
  0x8a, 0x42, 0x6b, 0x3e, 0xb9, 0x66, 0x10, 0x3e, 0xe9, 0x97, 0xf9, 0xbe,
  0x6c, 0xec, 0xfa, 0x3d, 0x23, 0x0b, 0x7a, 0x3f, 0x40, 0xf8, 0xff, 0xff,
  0x0f, 0x00, 0x00, 0x00, 0x54, 0x4f, 0x43, 0x4f, 0x20, 0x43, 0x6f, 0x6e,
  0x76, 0x65, 0x72, 0x74, 0x65, 0x64, 0x2e, 0x00, 0x01, 0x00, 0x00, 0x00,
  0x10, 0x00, 0x00, 0x00, 0x0c, 0x00, 0x14, 0x00, 0x04, 0x00, 0x08, 0x00,
  0x0c, 0x00, 0x10, 0x00, 0x0c, 0x00, 0x00, 0x00, 0x4c, 0x02, 0x00, 0x00,
  0x40, 0x02, 0x00, 0x00, 0x34, 0x02, 0x00, 0x00, 0x04, 0x00, 0x00, 0x00,
  0x07, 0x00, 0x00, 0x00, 0xd4, 0x01, 0x00, 0x00, 0x70, 0x01, 0x00, 0x00,
  0x24, 0x01, 0x00, 0x00, 0xc4, 0x00, 0x00, 0x00, 0x88, 0x00, 0x00, 0x00,
  0x40, 0x00, 0x00, 0x00, 0x04, 0x00, 0x00, 0x00, 0x56, 0xfe, 0xff, 0xff,
  0x00, 0x00, 0x00, 0x09, 0x04, 0x00, 0x00, 0x00, 0x24, 0x00, 0x00, 0x00,
  0x18, 0x00, 0x00, 0x00, 0x0c, 0x00, 0x00, 0x00, 0x00, 0x00, 0x06, 0x00,
  0x08, 0x00, 0x04, 0x00, 0x06, 0x00, 0x00, 0x00, 0x00, 0x00, 0x80, 0x3f,
  0x01, 0x00, 0x00, 0x00, 0x00, 0x00, 0x00, 0x00, 0x01, 0x00, 0x00, 0x00,
  0x0b, 0x00, 0x00, 0x00, 0xca, 0xff, 0xff, 0xff, 0x00, 0x00, 0x00, 0x08,
  0x02, 0x00, 0x00, 0x00, 0x18, 0x00, 0x00, 0x00, 0x0c, 0x00, 0x00, 0x00,
  0x04, 0x00, 0x00, 0x00, 0xf0, 0xf8, 0xff, 0xff, 0x01, 0x00, 0x00, 0x00,
  0x0b, 0x00, 0x00, 0x00, 0x03, 0x00, 0x00, 0x00, 0x0a, 0x00, 0x00, 0x00,
  0x0c, 0x00, 0x00, 0x00, 0x0d, 0x00, 0x00, 0x00, 0x00, 0x00, 0x0e, 0x00,
  0x18, 0x00, 0x08, 0x00, 0x0c, 0x00, 0x10, 0x00, 0x07, 0x00, 0x14, 0x00,
  0x0e, 0x00, 0x00, 0x00, 0x00, 0x00, 0x00, 0x08, 0x02, 0x00, 0x00, 0x00,
  0x1c, 0x00, 0x00, 0x00, 0x10, 0x00, 0x00, 0x00, 0x04, 0x00, 0x00, 0x00,
  0xf6, 0xf8, 0xff, 0xff, 0x00, 0x00, 0x00, 0x01, 0x01, 0x00, 0x00, 0x00,
  0x0a, 0x00, 0x00, 0x00, 0x03, 0x00, 0x00, 0x00, 0x0f, 0x00, 0x00, 0x00,
  0x08, 0x00, 0x00, 0x00, 0x09, 0x00, 0x00, 0x00, 0x0a, 0xff, 0xff, 0xff,
  0x00, 0x00, 0x00, 0x05, 0x03, 0x00, 0x00, 0x00, 0x38, 0x00, 0x00, 0x00,
  0x2c, 0x00, 0x00, 0x00, 0x14, 0x00, 0x00, 0x00, 0x00, 0x00, 0x0e, 0x00,
  0x14, 0x00, 0x00, 0x00, 0x04, 0x00, 0x08, 0x00, 0x0c, 0x00, 0x10, 0x00,
  0x0e, 0x00, 0x00, 0x00, 0x01, 0x00, 0x00, 0x00, 0x03, 0x00, 0x00, 0x00,
  0x01, 0x00, 0x00, 0x00, 0x03, 0x00, 0x00, 0x00, 0x01, 0x00, 0x00, 0x00,
  0x0f, 0x00, 0x00, 0x00, 0x01, 0x00, 0x00, 0x00, 0x07, 0x00, 0x00, 0x00,
  0x00, 0x00, 0x0e, 0x00, 0x14, 0x00, 0x00, 0x00, 0x08, 0x00, 0x0c, 0x00,
  0x07, 0x00, 0x10, 0x00, 0x0e, 0x00, 0x00, 0x00, 0x00, 0x00, 0x00, 0x01,
  0x30, 0x00, 0x00, 0x00, 0x24, 0x00, 0x00, 0x00, 0x10, 0x00, 0x00, 0x00,
  0x0c, 0x00, 0x10, 0x00, 0x00, 0x00, 0x08, 0x00, 0x0c, 0x00, 0x07, 0x00,
  0x0c, 0x00, 0x00, 0x00, 0x00, 0x00, 0x00, 0x01, 0x01, 0x00, 0x00, 0x00,
  0x01, 0x00, 0x00, 0x00, 0x01, 0x00, 0x00, 0x00, 0x07, 0x00, 0x00, 0x00,
  0x03, 0x00, 0x00, 0x00, 0x0e, 0x00, 0x00, 0x00, 0x05, 0x00, 0x00, 0x00,
  0x06, 0x00, 0x00, 0x00, 0xae, 0xff, 0xff, 0xff, 0x00, 0x00, 0x00, 0x05,
  0x03, 0x00, 0x00, 0x00, 0x3c, 0x00, 0x00, 0x00, 0x30, 0x00, 0x00, 0x00,
  0x14, 0x00, 0x00, 0x00, 0x00, 0x00, 0x0e, 0x00, 0x18, 0x00, 0x07, 0x00,
  0x08, 0x00, 0x0c, 0x00, 0x10, 0x00, 0x14, 0x00, 0x0e, 0x00, 0x00, 0x00,
  0x00, 0x00, 0x00, 0x01, 0x03, 0x00, 0x00, 0x00, 0x03, 0x00, 0x00, 0x00,
  0x03, 0x00, 0x00, 0x00, 0x03, 0x00, 0x00, 0x00, 0x01, 0x00, 0x00, 0x00,
  0x0e, 0x00, 0x00, 0x00, 0x01, 0x00, 0x00, 0x00, 0x04, 0x00, 0x00, 0x00,
  0x00, 0x00, 0x0e, 0x00, 0x1a, 0x00, 0x08, 0x00, 0x0c, 0x00, 0x10, 0x00,
  0x07, 0x00, 0x14, 0x00, 0x0e, 0x00, 0x00, 0x00, 0x00, 0x00, 0x00, 0x02,
  0x01, 0x00, 0x00, 0x00, 0x38, 0x00, 0x00, 0x00, 0x2c, 0x00, 0x00, 0x00,
  0x14, 0x00, 0x00, 0x00, 0x00, 0x00, 0x0e, 0x00, 0x14, 0x00, 0x00, 0x00,
  0x08, 0x00, 0x0c, 0x00, 0x10, 0x00, 0x07, 0x00, 0x0e, 0x00, 0x00, 0x00,
  0x00, 0x00, 0x00, 0x01, 0x01, 0x00, 0x00, 0x00, 0x01, 0x00, 0x00, 0x00,
  0x08, 0x00, 0x00, 0x00, 0x01, 0x00, 0x00, 0x00, 0x04, 0x00, 0x00, 0x00,
  0x03, 0x00, 0x00, 0x00, 0x01, 0x00, 0x00, 0x00, 0x02, 0x00, 0x00, 0x00,
  0x03, 0x00, 0x00, 0x00, 0x01, 0x00, 0x00, 0x00, 0x00, 0x00, 0x00, 0x00,
  0x01, 0x00, 0x00, 0x00, 0x01, 0x00, 0x00, 0x00, 0x10, 0x00, 0x00, 0x00,
  0x2c, 0x05, 0x00, 0x00, 0xb8, 0x04, 0x00, 0x00, 0x5c, 0x04, 0x00, 0x00,
  0x14, 0x04, 0x00, 0x00, 0xc8, 0x03, 0x00, 0x00, 0x68, 0x03, 0x00, 0x00,
  0x20, 0x03, 0x00, 0x00, 0xd0, 0x02, 0x00, 0x00, 0x40, 0x02, 0x00, 0x00,
  0xe8, 0x01, 0x00, 0x00, 0xa4, 0x01, 0x00, 0x00, 0x5c, 0x01, 0x00, 0x00,
  0xfc, 0x00, 0x00, 0x00, 0xb4, 0x00, 0x00, 0x00, 0x5c, 0x00, 0x00, 0x00,
  0x04, 0x00, 0x00, 0x00, 0x22, 0xfb, 0xff, 0xff, 0x3c, 0x00, 0x00, 0x00,
  0x0a, 0x00, 0x00, 0x00, 0x0c, 0x00, 0x00, 0x00, 0x04, 0x00, 0x00, 0x00,
  0x14, 0xfb, 0xff, 0xff, 0x22, 0x00, 0x00, 0x00, 0x73, 0x65, 0x71, 0x75,
  0x65, 0x6e, 0x74, 0x69, 0x61, 0x6c, 0x2f, 0x6d, 0x61, 0x78, 0x5f, 0x70,
  0x6f, 0x6f, 0x6c, 0x69, 0x6e, 0x67, 0x32, 0x64, 0x5f, 0x31, 0x2f, 0x4d,
  0x61, 0x78, 0x50, 0x6f, 0x6f, 0x6c, 0x00, 0x00, 0x04, 0x00, 0x00, 0x00,
  0x01, 0x00, 0x00, 0x00, 0x07, 0x00, 0x00, 0x00, 0x01, 0x00, 0x00, 0x00,
  0x10, 0x00, 0x00, 0x00, 0x76, 0xfb, 0xff, 0xff, 0x3c, 0x00, 0x00, 0x00,
  0x10, 0x00, 0x00, 0x00, 0x0c, 0x00, 0x00, 0x00, 0x04, 0x00, 0x00, 0x00,
  0x68, 0xfb, 0xff, 0xff, 0x20, 0x00, 0x00, 0x00, 0x73, 0x65, 0x71, 0x75,
  0x65, 0x6e, 0x74, 0x69, 0x61, 0x6c, 0x2f, 0x6d, 0x61, 0x78, 0x5f, 0x70,
  0x6f, 0x6f, 0x6c, 0x69, 0x6e, 0x67, 0x32, 0x64, 0x2f, 0x4d, 0x61, 0x78,
  0x50, 0x6f, 0x6f, 0x6c, 0x00, 0x00, 0x00, 0x00, 0x04, 0x00, 0x00, 0x00,
  0x01, 0x00, 0x00, 0x00, 0x15, 0x00, 0x00, 0x00, 0x01, 0x00, 0x00, 0x00,
  0x08, 0x00, 0x00, 0x00, 0xca, 0xfb, 0xff, 0xff, 0x38, 0x00, 0x00, 0x00,
  0x03, 0x00, 0x00, 0x00, 0x0c, 0x00, 0x00, 0x00, 0x04, 0x00, 0x00, 0x00,
  0xbc, 0xfb, 0xff, 0xff, 0x1e, 0x00, 0x00, 0x00, 0x73, 0x65, 0x71, 0x75,
  0x65, 0x6e, 0x74, 0x69, 0x61, 0x6c, 0x2f, 0x64, 0x65, 0x6e, 0x73, 0x65,
  0x5f, 0x31, 0x2f, 0x4d, 0x61, 0x74, 0x4d, 0x75, 0x6c, 0x5f, 0x62, 0x69,
  0x61, 0x73, 0x00, 0x00, 0x01, 0x00, 0x00, 0x00, 0x03, 0x00, 0x00, 0x00,
  0x0e, 0xfc, 0xff, 0xff, 0x4c, 0x00, 0x00, 0x00, 0x02, 0x00, 0x00, 0x00,
  0x0c, 0x00, 0x00, 0x00, 0x04, 0x00, 0x00, 0x00, 0x00, 0xfc, 0xff, 0xff,
  0x32, 0x00, 0x00, 0x00, 0x73, 0x65, 0x71, 0x75, 0x65, 0x6e, 0x74, 0x69,
  0x61, 0x6c, 0x2f, 0x64, 0x65, 0x6e, 0x73, 0x65, 0x5f, 0x31, 0x2f, 0x4d,
  0x61, 0x74, 0x4d, 0x75, 0x6c, 0x2f, 0x52, 0x65, 0x61, 0x64, 0x56, 0x61,
  0x72, 0x69, 0x61, 0x62, 0x6c, 0x65, 0x4f, 0x70, 0x2f, 0x74, 0x72, 0x61,
  0x6e, 0x73, 0x70, 0x6f, 0x73, 0x65, 0x00, 0x00, 0x02, 0x00, 0x00, 0x00,
  0x03, 0x00, 0x00, 0x00, 0x10, 0x00, 0x00, 0x00, 0x6a, 0xfc, 0xff, 0xff,
  0x34, 0x00, 0x00, 0x00, 0x08, 0x00, 0x00, 0x00, 0x0c, 0x00, 0x00, 0x00,
  0x04, 0x00, 0x00, 0x00, 0x5c, 0xfc, 0xff, 0xff, 0x1a, 0x00, 0x00, 0x00,
  0x73, 0x65, 0x71, 0x75, 0x65, 0x6e, 0x74, 0x69, 0x61, 0x6c, 0x2f, 0x64,
  0x65, 0x6e, 0x73, 0x65, 0x5f, 0x31, 0x2f, 0x42, 0x69, 0x61, 0x73, 0x41,
  0x64, 0x64, 0x00, 0x00, 0x02, 0x00, 0x00, 0x00, 0x01, 0x00, 0x00, 0x00,
  0x03, 0x00, 0x00, 0x00, 0xae, 0xfc, 0xff, 0xff, 0x30, 0x00, 0x00, 0x00,
  0x09, 0x00, 0x00, 0x00, 0x0c, 0x00, 0x00, 0x00, 0x04, 0x00, 0x00, 0x00,
  0xa0, 0xfc, 0xff, 0xff, 0x15, 0x00, 0x00, 0x00, 0x73, 0x65, 0x71, 0x75,
  0x65, 0x6e, 0x74, 0x69, 0x61, 0x6c, 0x2f, 0x64, 0x65, 0x6e, 0x73, 0x65,
  0x2f, 0x52, 0x65, 0x6c, 0x75, 0x00, 0x00, 0x00, 0x02, 0x00, 0x00, 0x00,
  0x01, 0x00, 0x00, 0x00, 0x10, 0x00, 0x00, 0x00, 0xee, 0xfc, 0xff, 0xff,
  0x38, 0x00, 0x00, 0x00, 0x01, 0x00, 0x00, 0x00, 0x0c, 0x00, 0x00, 0x00,
  0x04, 0x00, 0x00, 0x00, 0xe0, 0xfc, 0xff, 0xff, 0x1c, 0x00, 0x00, 0x00,
  0x73, 0x65, 0x71, 0x75, 0x65, 0x6e, 0x74, 0x69, 0x61, 0x6c, 0x2f, 0x64,
  0x65, 0x6e, 0x73, 0x65, 0x2f, 0x4d, 0x61, 0x74, 0x4d, 0x75, 0x6c, 0x5f,
  0x62, 0x69, 0x61, 0x73, 0x00, 0x00, 0x00, 0x00, 0x01, 0x00, 0x00, 0x00,
  0x10, 0x00, 0x00, 0x00, 0x00, 0x00, 0x0e, 0x00, 0x18, 0x00, 0x08, 0x00,
  0x07, 0x00, 0x0c, 0x00, 0x10, 0x00, 0x14, 0x00, 0x0e, 0x00, 0x00, 0x00,
  0x00, 0x00, 0x00, 0x09, 0x78, 0x00, 0x00, 0x00, 0x06, 0x00, 0x00, 0x00,
  0x38, 0x00, 0x00, 0x00, 0x10, 0x00, 0x00, 0x00, 0x0c, 0x00, 0x0c, 0x00,
  0x00, 0x00, 0x00, 0x00, 0x04, 0x00, 0x08, 0x00, 0x0c, 0x00, 0x00, 0x00,
  0x18, 0x00, 0x00, 0x00, 0x04, 0x00, 0x00, 0x00, 0x01, 0x00, 0x00, 0x00,
  0x00, 0x00, 0x00, 0x00, 0x00, 0x00, 0x00, 0x00, 0x00, 0x00, 0x00, 0x00,
  0x01, 0x00, 0x00, 0x00, 0xf2, 0x00, 0xca, 0x3b, 0x30, 0x00, 0x00, 0x00,
  0x73, 0x65, 0x71, 0x75, 0x65, 0x6e, 0x74, 0x69, 0x61, 0x6c, 0x2f, 0x64,
  0x65, 0x6e, 0x73, 0x65, 0x2f, 0x4d, 0x61, 0x74, 0x4d, 0x75, 0x6c, 0x2f,
  0x52, 0x65, 0x61, 0x64, 0x56, 0x61, 0x72, 0x69, 0x61, 0x62, 0x6c, 0x65,
  0x4f, 0x70, 0x2f, 0x74, 0x72, 0x61, 0x6e, 0x73, 0x70, 0x6f, 0x73, 0x65,
  0x00, 0x00, 0x00, 0x00, 0x02, 0x00, 0x00, 0x00, 0x10, 0x00, 0x00, 0x00,
  0x70, 0x00, 0x00, 0x00, 0xce, 0xfd, 0xff, 0xff, 0x34, 0x00, 0x00, 0x00,
  0x0b, 0x00, 0x00, 0x00, 0x0c, 0x00, 0x00, 0x00, 0x04, 0x00, 0x00, 0x00,
  0xc0, 0xfd, 0xff, 0xff, 0x18, 0x00, 0x00, 0x00, 0x73, 0x65, 0x71, 0x75,
  0x65, 0x6e, 0x74, 0x69, 0x61, 0x6c, 0x2f, 0x63, 0x6f, 0x6e, 0x76, 0x32,
  0x64, 0x5f, 0x31, 0x2f, 0x52, 0x65, 0x6c, 0x75, 0x00, 0x00, 0x00, 0x00,
  0x04, 0x00, 0x00, 0x00, 0x01, 0x00, 0x00, 0x00, 0x15, 0x00, 0x00, 0x00,
  0x01, 0x00, 0x00, 0x00, 0x10, 0x00, 0x00, 0x00, 0x1a, 0xfe, 0xff, 0xff,
  0x38, 0x00, 0x00, 0x00, 0x04, 0x00, 0x00, 0x00, 0x0c, 0x00, 0x00, 0x00,
  0x04, 0x00, 0x00, 0x00, 0x0c, 0xfe, 0xff, 0xff, 0x1f, 0x00, 0x00, 0x00,
  0x73, 0x65, 0x71, 0x75, 0x65, 0x6e, 0x74, 0x69, 0x61, 0x6c, 0x2f, 0x63,
  0x6f, 0x6e, 0x76, 0x32, 0x64, 0x5f, 0x31, 0x2f, 0x43, 0x6f, 0x6e, 0x76,
  0x32, 0x44, 0x5f, 0x62, 0x69, 0x61, 0x73, 0x00, 0x01, 0x00, 0x00, 0x00,
  0x10, 0x00, 0x00, 0x00, 0x5e, 0xfe, 0xff, 0xff, 0x44, 0x00, 0x00, 0x00,
  0x0d, 0x00, 0x00, 0x00, 0x0c, 0x00, 0x00, 0x00, 0x04, 0x00, 0x00, 0x00,
  0x50, 0xfe, 0xff, 0xff, 0x29, 0x00, 0x00, 0x00, 0x73, 0x65, 0x71, 0x75,
  0x65, 0x6e, 0x74, 0x69, 0x61, 0x6c, 0x2f, 0x63, 0x6f, 0x6e, 0x76, 0x32,
  0x64, 0x5f, 0x31, 0x2f, 0x43, 0x6f, 0x6e, 0x76, 0x32, 0x44, 0x2f, 0x52,
  0x65, 0x61, 0x64, 0x56, 0x61, 0x72, 0x69, 0x61, 0x62, 0x6c, 0x65, 0x4f,
  0x70, 0x00, 0x00, 0x00, 0x04, 0x00, 0x00, 0x00, 0x10, 0x00, 0x00, 0x00,
  0x04, 0x00, 0x00, 0x00, 0x01, 0x00, 0x00, 0x00, 0x08, 0x00, 0x00, 0x00,
  0xba, 0xfe, 0xff, 0xff, 0x30, 0x00, 0x00, 0x00, 0x0f, 0x00, 0x00, 0x00,
  0x0c, 0x00, 0x00, 0x00, 0x04, 0x00, 0x00, 0x00, 0xac, 0xfe, 0xff, 0xff,
  0x16, 0x00, 0x00, 0x00, 0x73, 0x65, 0x71, 0x75, 0x65, 0x6e, 0x74, 0x69,
  0x61, 0x6c, 0x2f, 0x63, 0x6f, 0x6e, 0x76, 0x32, 0x64, 0x2f, 0x52, 0x65,
  0x6c, 0x75, 0x00, 0x00, 0x04, 0x00, 0x00, 0x00, 0x01, 0x00, 0x00, 0x00,
  0x40, 0x00, 0x00, 0x00, 0x03, 0x00, 0x00, 0x00, 0x08, 0x00, 0x00, 0x00,
  0x02, 0xff, 0xff, 0xff, 0x38, 0x00, 0x00, 0x00, 0x05, 0x00, 0x00, 0x00,
  0x0c, 0x00, 0x00, 0x00, 0x04, 0x00, 0x00, 0x00, 0xf4, 0xfe, 0xff, 0xff,
  0x1d, 0x00, 0x00, 0x00, 0x73, 0x65, 0x71, 0x75, 0x65, 0x6e, 0x74, 0x69,
  0x61, 0x6c, 0x2f, 0x63, 0x6f, 0x6e, 0x76, 0x32, 0x64, 0x2f, 0x43, 0x6f,
  0x6e, 0x76, 0x32, 0x44, 0x5f, 0x62, 0x69, 0x61, 0x73, 0x00, 0x00, 0x00,
  0x01, 0x00, 0x00, 0x00, 0x08, 0x00, 0x00, 0x00, 0x46, 0xff, 0xff, 0xff,
  0x40, 0x00, 0x00, 0x00, 0x0e, 0x00, 0x00, 0x00, 0x0c, 0x00, 0x00, 0x00,
  0x04, 0x00, 0x00, 0x00, 0x38, 0xff, 0xff, 0xff, 0x27, 0x00, 0x00, 0x00,
  0x73, 0x65, 0x71, 0x75, 0x65, 0x6e, 0x74, 0x69, 0x61, 0x6c, 0x2f, 0x63,
  0x6f, 0x6e, 0x76, 0x32, 0x64, 0x2f, 0x43, 0x6f, 0x6e, 0x76, 0x32, 0x44,
  0x2f, 0x52, 0x65, 0x61, 0x64, 0x56, 0x61, 0x72, 0x69, 0x61, 0x62, 0x6c,
  0x65, 0x4f, 0x70, 0x00, 0x04, 0x00, 0x00, 0x00, 0x01, 0x00, 0x00, 0x00,
  0x04, 0x00, 0x00, 0x00, 0x03, 0x00, 0x00, 0x00, 0x08, 0x00, 0x00, 0x00,
  0x9e, 0xff, 0xff, 0xff, 0x48, 0x00, 0x00, 0x00, 0x0c, 0x00, 0x00, 0x00,
  0x2c, 0x00, 0x00, 0x00, 0x0c, 0x00, 0x00, 0x00, 0x08, 0x00, 0x0c, 0x00,
  0x04, 0x00, 0x08, 0x00, 0x08, 0x00, 0x00, 0x00, 0x10, 0x00, 0x00, 0x00,
  0x04, 0x00, 0x00, 0x00, 0x01, 0x00, 0x00, 0x00, 0x00, 0x00, 0x7f, 0x43,
  0x01, 0x00, 0x00, 0x00, 0x00, 0x00, 0x00, 0x00, 0x0c, 0x00, 0x00, 0x00,
  0x63, 0x6f, 0x6e, 0x76, 0x32, 0x64, 0x5f, 0x69, 0x6e, 0x70, 0x75, 0x74,
  0x00, 0x00, 0x00, 0x00, 0x04, 0x00, 0x00, 0x00, 0x01, 0x00, 0x00, 0x00,
  0x40, 0x00, 0x00, 0x00, 0x03, 0x00, 0x00, 0x00, 0x01, 0x00, 0x00, 0x00,
  0x00, 0x00, 0x0e, 0x00, 0x14, 0x00, 0x04, 0x00, 0x00, 0x00, 0x08, 0x00,
  0x0c, 0x00, 0x10, 0x00, 0x0e, 0x00, 0x00, 0x00, 0x28, 0x00, 0x00, 0x00,
  0x07, 0x00, 0x00, 0x00, 0x10, 0x00, 0x00, 0x00, 0x08, 0x00, 0x00, 0x00,
  0x04, 0x00, 0x04, 0x00, 0x04, 0x00, 0x00, 0x00, 0x08, 0x00, 0x00, 0x00,
  0x49, 0x64, 0x65, 0x6e, 0x74, 0x69, 0x74, 0x79, 0x00, 0x00, 0x00, 0x00,
  0x02, 0x00, 0x00, 0x00, 0x01, 0x00, 0x00, 0x00, 0x03, 0x00, 0x00, 0x00,
  0x05, 0x00, 0x00, 0x00, 0x58, 0x00, 0x00, 0x00, 0x44, 0x00, 0x00, 0x00,
  0x2c, 0x00, 0x00, 0x00, 0x18, 0x00, 0x00, 0x00, 0x0c, 0x00, 0x00, 0x00,
  0x00, 0x00, 0x06, 0x00, 0x08, 0x00, 0x07, 0x00, 0x06, 0x00, 0x00, 0x00,
  0x00, 0x00, 0x00, 0x19, 0xe2, 0xff, 0xff, 0xff, 0x00, 0x11, 0x0a, 0x00,
  0x0e, 0x00, 0x07, 0x00, 0x00, 0x00, 0x08, 0x00, 0x0a, 0x00, 0x00, 0x00,
  0x00, 0x00, 0x00, 0x09, 0x03, 0x00, 0x00, 0x00, 0x00, 0x00, 0x06, 0x00,
  0x06, 0x00, 0x05, 0x00, 0x06, 0x00, 0x00, 0x00, 0x00, 0x04, 0x0a, 0x00,
  0x0c, 0x00, 0x07, 0x00, 0x00, 0x00, 0x08, 0x00, 0x0a, 0x00, 0x00, 0x00,
  0x00, 0x00, 0x00, 0x03, 0x02, 0x00, 0x00, 0x00
};
unsigned int _home_ee2405_ee2405_mbed07_model_model_quantized_tflite_len = 7040;
